
#ifndef ECG_MODEL_H
#define ECG_MODEL_H

#include <cstdint>

// Model data as a byte array
constexpr unsigned char ecg_model[] = {
0x1C, 0x00, 0x00, 0x00, 0x54, 0x46, 0x4C, 0x33, 0x14, 0x00, 0x20, 0x00, 0x1C, 0x00, 0x18, 0x00, 0x14, 0x00, 0x10, 0x00, 0x0C, 0x00, 0x00, 0x00, 0x08, 0x00, 0x04, 0x00, 0x14, 0x00, 0x00, 0x00, 0x1C, 0x00, 0x00, 0x00, 0x94, 0x00, 0x00, 0x00, 0xEC, 0x00, 0x00, 0x00, 0xC4, 0x0C, 0x00, 0x00, 0xD4, 0x0C, 0x00, 0x00, 0x9C, 0x0F, 0x00, 0x00, 0x03, 0x00, 0x00, 0x00, 0x01, 0x00, 0x00, 0x00, 0x10, 0x00, 0x00, 0x00, 0x00, 0x00, 0x0A, 0x00, 0x10, 0x00, 0x0C, 0x00, 0x08, 0x00, 0x04, 0x00, 0x0A, 0x00, 0x00, 0x00, 0x0C, 0x00, 0x00, 0x00, 0x1C, 0x00, 0x00, 0x00, 0x3C, 0x00, 0x00, 0x00, 0x0F, 0x00, 0x00, 0x00, 0x73, 0x65, 0x72, 0x76, 0x69, 0x6E, 0x67, 0x5F, 0x64, 0x65, 0x66, 0x61, 0x75, 0x6C, 0x74, 0x00, 0x01, 0x00, 0x00, 0x00, 0x04, 0x00, 0x00, 0x00, 0x94, 0xFF, 0xFF, 0xFF, 0x04, 0x00, 0x00, 0x00, 0x04, 0x00, 0x00, 0x00, 0x08, 0x00, 0x00, 0x00, 0x6F, 0x75, 0x74, 0x70, 0x75, 0x74, 0x5F, 0x30, 0x00, 0x00, 0x00, 0x00, 0x01, 0x00, 0x00, 0x00, 0x04, 0x00, 0x00, 0x00, 0xCA, 0xF4, 0xFF, 0xFF, 0x04, 0x00, 0x00, 0x00, 0x0B, 0x00, 0x00, 0x00, 0x69, 0x6E, 0x70, 0x75, 0x74, 0x5F, 0x6C, 0x61, 0x79, 0x65, 0x72, 0x00, 0x02, 0x00, 0x00, 0x00, 0x34, 0x00, 0x00, 0x00, 0x04, 0x00, 0x00, 0x00, 0xDC, 0xFF, 0xFF, 0xFF, 0x07, 0x00, 0x00, 0x00, 0x04, 0x00, 0x00, 0x00, 0x13, 0x00, 0x00, 0x00, 0x43, 0x4F, 0x4E, 0x56, 0x45, 0x52, 0x53, 0x49, 0x4F, 0x4E, 0x5F, 0x4D, 0x45, 0x54, 0x41, 0x44, 0x41, 0x54, 0x41, 0x00, 0x08, 0x00, 0x0C, 0x00, 0x08, 0x00, 0x04, 0x00, 0x08, 0x00, 0x00, 0x00, 0x06, 0x00, 0x00, 0x00, 0x04, 0x00, 0x00, 0x00, 0x13, 0x00, 0x00, 0x00, 0x6D, 0x69, 0x6E, 0x5F, 0x72, 0x75, 0x6E, 0x74, 0x69, 0x6D, 0x65, 0x5F, 0x76, 0x65, 0x72, 0x73, 0x69, 0x6F, 0x6E, 0x00, 0x08, 0x00, 0x00, 0x00, 0xD4, 0x0B, 0x00, 0x00, 0xCC, 0x0B, 0x00, 0x00, 0xBC, 0x0A, 0x00, 0x00, 0xA4, 0x00, 0x00, 0x00, 0x9C, 0x00, 0x00, 0x00, 0x94, 0x00, 0x00, 0x00, 0x74, 0x00, 0x00, 0x00, 0x04, 0x00, 0x00, 0x00, 0x62, 0xF5, 0xFF, 0xFF, 0x04, 0x00, 0x00, 0x00, 0x60, 0x00, 0x00, 0x00, 0x0C, 0x00, 0x00, 0x00, 0x08, 0x00, 0x0E, 0x00, 0x08, 0x00, 0x04, 0x00, 0x08, 0x00, 0x00, 0x00, 0x10, 0x00, 0x00, 0x00, 0x28, 0x00, 0x00, 0x00, 0x00, 0x00, 0x06, 0x00, 0x08, 0x00, 0x04, 0x00, 0x06, 0x00, 0x00, 0x00, 0x04, 0x00, 0x00, 0x00, 0x01, 0x00, 0x00, 0x00, 0xEA, 0x03, 0x00, 0x00, 0x0C, 0x00, 0x18, 0x00, 0x14, 0x00, 0x10, 0x00, 0x0C, 0x00, 0x04, 0x00, 0x0C, 0x00, 0x00, 0x00, 0xC9, 0x4E, 0x99, 0x61, 0xDD, 0x7E, 0xEC, 0x62, 0x02, 0x00, 0x00, 0x00, 0x02, 0x00, 0x00, 0x00, 0x04, 0x00, 0x00, 0x00, 0x06, 0x00, 0x00, 0x00, 0x32, 0x2E, 0x31, 0x38, 0x2E, 0x30, 0x00, 0x00, 0xCE, 0xF5, 0xFF, 0xFF, 0x04, 0x00, 0x00, 0x00, 0x10, 0x00, 0x00, 0x00, 0x31, 0x2E, 0x35, 0x2E, 0x30, 0x00, 0x00, 0x00, 0x00, 0x00, 0x00, 0x00, 0x00, 0x00, 0x00, 0x00, 0x28, 0xF2, 0xFF, 0xFF, 0x2C, 0xF2, 0xFF, 0xFF, 0xF2, 0xF5, 0xFF, 0xFF, 0x04, 0x00, 0x00, 0x00, 0x00, 0x0A, 0x00, 0x00, 0xA3, 0x03, 0x84, 0x3E, 0xA6, 0xBF, 0x37, 0x3E, 0xB8, 0x6B, 0x41, 0xBD, 0x6C, 0x9D, 0x6F, 0xBD, 0xA1, 0x67, 0x81, 0x3E, 0xF0, 0x7E, 0xC2, 0xBC, 0x85, 0xFF, 0x85, 0xBE, 0x9C, 0x02, 0x0E, 0x3E, 0x24, 0x60, 0x2D, 0xBD, 0x3C, 0x66, 0x2A, 0xBD, 0x20, 0x2B, 0xEE, 0x3C, 0x32, 0x02, 0x67, 0x3E, 0x5C, 0xA6, 0x41, 0x3E, 0x20, 0xF5, 0x5C, 0x3D, 0x92, 0xF3, 0x6F, 0x3E, 0x00, 0xD7, 0x8D, 0x3B, 0x26, 0x1E, 0xC8, 0xBD, 0x20, 0x4B, 0xE5, 0xBC, 0x60, 0x25, 0xC2, 0x3D, 0x60, 0x41, 0xDF, 0x3C, 0x14, 0x9A, 0xF5, 0x3D, 0x8D, 0x74, 0x38, 0xBE, 0x40, 0x6D, 0xE1, 0x3D, 0xB5, 0xD7, 0x1E, 0xBE, 0x9C, 0x0A, 0x85, 0xBE, 0xBE, 0x35, 0x12, 0x3E, 0x22, 0xDF, 0x35, 0xBE, 0xF0, 0x84, 0xF1, 0x3C, 0xE4, 0x4B, 0x45, 0x3E, 0x80, 0x90, 0x00, 0x3C, 0xBD, 0x55, 0x90, 0x3E, 0xEA, 0xE6, 0x83, 0xBD, 0x57, 0x8D, 0x1C, 0xBE, 0x86, 0x82, 0x32, 0x3E, 0x10, 0x2B, 0x43, 0x3E, 0x6C, 0x5A, 0xCA, 0x3D, 0xF8, 0x2C, 0xD0, 0xBD, 0x0F, 0xDB, 0x86, 0xBE, 0xC4, 0x1D, 0x49, 0x3E, 0x26, 0x6D, 0x32, 0x3E, 0x78, 0xC1, 0xA6, 0xBD, 0xC8, 0x47, 0x40, 0x3D, 0xF0, 0x5E, 0xC9, 0xBC, 0x8C, 0x26, 0x51, 0xBE, 0x3C, 0x68, 0x51, 0x3E, 0xE8, 0x9C, 0x59, 0xBE, 0x58, 0x42, 0x00, 0x3E, 0x57, 0x0D, 0x85, 0xBE, 0xC0, 0x10, 0x27, 0x3C, 0xD8, 0x45, 0x33, 0x3E, 0x84, 0xE2, 0xD1, 0x3D, 0xF6, 0x58, 0xF9, 0xBD, 0xF0, 0x18, 0x80, 0x3D, 0x7C, 0xAF, 0x34, 0x3E, 0x80, 0x79, 0x05, 0xBB, 0xB8, 0x51, 0x65, 0x3D, 0x0F, 0xBF, 0x8F, 0x3E, 0xC8, 0xE3, 0x95, 0x3D, 0xE8, 0x36, 0x69, 0x3D, 0xD0, 0x1D, 0x67, 0xBD, 0xC6, 0x58, 0x3C, 0x3E, 0xB8, 0xC6, 0x67, 0xBE, 0xC3, 0xF3, 0x03, 0xBE, 0xAF, 0xCB, 0x85, 0x3E, 0xB0, 0x7D, 0xA7, 0xBC, 0x00, 0xBC, 0x4D, 0x3E, 0xD6, 0xDB, 0x6F, 0x3E, 0x0F, 0x64, 0x82, 0x3E, 0x04, 0x9E, 0x4A, 0x3E, 0x80, 0x0C, 0x72, 0xBC, 0x6A, 0x09, 0x86, 0xBE, 0xC0, 0x58, 0xCA, 0x3B, 0x50, 0x9E, 0xA3, 0xBC, 0xA6, 0xE6, 0x5F, 0x3E, 0x41, 0x73, 0x83, 0x3E, 0x1C, 0x2F, 0xC0, 0x3D, 0x8A, 0xFD, 0xA7, 0xBD, 0x00, 0x9A, 0xCE, 0xBA, 0x8E, 0x22, 0x21, 0x3E, 0xC0, 0x8B, 0x40, 0x3C, 0x08, 0x2B, 0x2D, 0x3D, 0x10, 0x38, 0x84, 0xBD, 0x8A, 0xA0, 0x44, 0xBE, 0x20, 0x61, 0x8C, 0x3C, 0xD5, 0x43, 0x14, 0xBE, 0x88, 0x1D, 0x1A, 0x3E, 0x68, 0xF6, 0x0C, 0x3D, 0x0D, 0xCE, 0x86, 0x3E, 0x40, 0x84, 0x27, 0x3D, 0x92, 0x15, 0x8B, 0xBE, 0x03, 0xF6, 0x90, 0x3E, 0x43, 0xB3, 0x44, 0xBE, 0xC0, 0x64, 0xA9, 0x3C, 0xCC, 0xC5, 0xCE, 0x3D, 0x54, 0x17, 0xA6, 0x3D, 0xC8, 0x5D, 0x0C, 0x3D, 0x40, 0x64, 0xD2, 0x3D, 0xA8, 0x4E, 0x71, 0x3D, 0x87, 0xA2, 0x82, 0x3E, 0x3E, 0x43, 0x69, 0x3E, 0xC0, 0xAF, 0x0E, 0xBD, 0x12, 0xC7, 0x64, 0x3E, 0x10, 0x92, 0xBC, 0xBC, 0xCC, 0x58, 0x49, 0x3E, 0x92, 0x87, 0x76, 0xBE, 0xA0, 0x66, 0x91, 0x3C, 0xBF, 0x57, 0x8B, 0x3E, 0x3D, 0xA1, 0x91, 0xBE, 0xF2, 0x93, 0x73, 0x3E, 0x94, 0x52, 0x87, 0xBD, 0xD0, 0x81, 0x7F, 0x3D, 0xCE, 0xE8, 0xD5, 0xBD, 0x72, 0x06, 0xE5, 0xBD, 0x6C, 0x8F, 0xFF, 0xBD, 0xE0, 0x82, 0x12, 0x3C, 0xF0, 0xF0, 0xAD, 0x3C, 0x28, 0xE2, 0x55, 0x3D, 0x80, 0xF3, 0x93, 0xBD, 0xC4, 0x42, 0x56, 0x3E, 0xE9, 0xB6, 0x85, 0x3E, 0x38, 0x34, 0xB3, 0x3D, 0x94, 0x3E, 0x39, 0x3E, 0xD8, 0xD4, 0x0F, 0x3E, 0xF0, 0x3F, 0x59, 0x3E, 0xBA, 0x14, 0x6C, 0xBE, 0xAA, 0x75, 0x05, 0xBE, 0xA8, 0x0B, 0xA4, 0x3D, 0x72, 0x1B, 0x2C, 0xBE, 0x00, 0x7E, 0xD1, 0xBB, 0xE0, 0x9A, 0x84, 0xBC, 0x7C, 0x93, 0x4F, 0xBD, 0x6E, 0x4B, 0x3D, 0xBE, 0x44, 0x86, 0x8F, 0x3D, 0x74, 0x22, 0xF1, 0x3D, 0x00, 0x49, 0x52, 0xBB, 0xFD, 0x96, 0x67, 0xBE, 0xAA, 0x8C, 0x90, 0xBD, 0x8F, 0x85, 0x50, 0xBE, 0x36, 0x3F, 0x86, 0xBE, 0x00, 0x6A, 0x38, 0x3C, 0x0F, 0x97, 0x06, 0xBE, 0x94, 0x56, 0xB5, 0xBD, 0x40, 0xBC, 0x69, 0xBC, 0x06, 0x24, 0x87, 0xBD, 0x18, 0x89, 0x45, 0x3E, 0xE0, 0xAB, 0x34, 0xBD, 0xAA, 0xAF, 0xAA, 0xBD, 0x4E, 0x63, 0x28, 0x3E, 0x16, 0xB1, 0x2D, 0x3E, 0x48, 0x45, 0xAC, 0xBD, 0xC3, 0xAA, 0x8F, 0x3E, 0x16, 0x41, 0x29, 0xBE, 0x84, 0xBA, 0x48, 0xBD, 0x00, 0x60, 0x15, 0x3D, 0x77, 0x81, 0x85, 0xBE, 0x14, 0x52, 0xDD, 0x3D, 0x15, 0xDB, 0x8D, 0x3E, 0xEC, 0x1F, 0x41, 0x3E, 0x9A, 0xF2, 0x1F, 0x3E, 0x5F, 0xC2, 0x84, 0x3E, 0x40, 0x17, 0xCF, 0xBC, 0x28, 0x89, 0x44, 0xBD, 0x36, 0x8C, 0x11, 0xBE, 0xEF, 0x04, 0x1D, 0xBE, 0xF2, 0x9E, 0x7C, 0x3E, 0x6D, 0xC4, 0x5B, 0xBE, 0x49, 0xF1, 0x1F, 0xBE, 0x4C, 0xDC, 0x2A, 0x3E, 0x9C, 0xB6, 0x7C, 0xBE, 0x3C, 0x67, 0x51, 0x3E, 0xF3, 0x0A, 0x8D, 0xBE, 0xDA, 0x36, 0x6E, 0x3E, 0x64, 0x68, 0xDA, 0xBD, 0xCC, 0x7B, 0xC5, 0x3D, 0x00, 0x66, 0xF0, 0xBB, 0xF8, 0x09, 0x24, 0xBD, 0x3A, 0x6A, 0x6A, 0x3E, 0xB4, 0x58, 0x20, 0x3E, 0x33, 0xDF, 0x37, 0xBE, 0x48, 0xC7, 0x40, 0xBD, 0x95, 0x84, 0x89, 0x3E, 0x15, 0xE7, 0x90, 0x3E, 0xD4, 0x2D, 0xAF, 0xBD, 0x30, 0xBC, 0xB5, 0xBC, 0x80, 0xA3, 0x64, 0x3B, 0x88, 0x3C, 0xA3, 0xBD, 0x48, 0x78, 0xF0, 0x3D, 0x6C, 0xA9, 0x4B, 0x3E, 0x94, 0x98, 0x97, 0xBD, 0x3B, 0xFF, 0x8C, 0x3E, 0x9D, 0x4F, 0x72, 0xBE, 0xBA, 0x58, 0x2A, 0xBE, 0xAC, 0x65, 0xA9, 0xBD, 0x4C, 0xC0, 0x4C, 0x3E, 0x92, 0x05, 0x8B, 0xBE, 0xA2, 0xE3, 0x21, 0x3E, 0x94, 0x29, 0x2F, 0x3E, 0x94, 0x11, 0x1B, 0xBE, 0x10, 0x7B, 0x9E, 0xBC, 0xD8, 0xD3, 0xAE, 0x3D, 0x89, 0xA9, 0x8F, 0x3E, 0xF0, 0xC3, 0xE7, 0x3C, 0x00, 0xEB, 0xA8, 0xBB, 0x02, 0x1B, 0x62, 0x3E, 0x99, 0xB6, 0x8C, 0x3E, 0x43, 0xD3, 0x3E, 0xBE, 0x00, 0x79, 0x74, 0x3D, 0x32, 0x99, 0x5C, 0x3E, 0xFE, 0xB3, 0x3B, 0x3E, 0x4C, 0xF9, 0x4E, 0xBD, 0xCA, 0x6A, 0xA1, 0xBD, 0xB9, 0x27, 0x91, 0x3E, 0x26, 0x86, 0xD1, 0xBD, 0x71, 0x92, 0x3D, 0xBE, 0x5C, 0x90, 0xA0, 0x3D, 0x01, 0xE0, 0x5D, 0xBE, 0xA0, 0xA7, 0x09, 0x3D, 0x40, 0x82, 0x9A, 0x3B, 0xB0, 0x31, 0x3C, 0xBD, 0x52, 0xAA, 0x86, 0xBE, 0xC0, 0x66, 0xF5, 0x3B, 0x40, 0xD9, 0x52, 0x3C, 0x90, 0xB7, 0x8A, 0x3C, 0x11, 0xD0, 0x90, 0x3E, 0xBC, 0x50, 0x43, 0x3E, 0xD0, 0xD0, 0x01, 0x3D, 0x7E, 0x6D, 0x43, 0xBE, 0x68, 0x7E, 0xC7, 0xBD, 0x8D, 0xA3, 0x91, 0x3E, 0xE0, 0xB4, 0x59, 0xBE, 0xC1, 0xC0, 0x22, 0xBE, 0x66, 0xA3, 0x43, 0xBE, 0x84, 0xF2, 0xA6, 0xBD, 0x92, 0x82, 0x3B, 0xBE, 0x10, 0xBB, 0x61, 0xBD, 0x76, 0x5D, 0xC0, 0xBD, 0x07, 0x4D, 0x20, 0xBE, 0x6E, 0xBF, 0x05, 0x3E, 0xF4, 0x69, 0x29, 0xBD, 0x2E, 0xA3, 0x51, 0xBE, 0x04, 0x14, 0x0F, 0x3E, 0x18, 0x28, 0xB5, 0x3D, 0x28, 0xF7, 0x6D, 0x3D, 0xA8, 0x9A, 0x6B, 0xBE, 0x22, 0xCC, 0x68, 0x3E, 0xDC, 0x73, 0xE5, 0x3D, 0x4C, 0x67, 0x36, 0xBD, 0xDE, 0x11, 0x74, 0x3E, 0xBE, 0xE3, 0x63, 0x3E, 0x09, 0xB0, 0x83, 0xBE, 0x77, 0x05, 0x80, 0xBE, 0xD6, 0x72, 0x0B, 0x3E, 0xE4, 0x11, 0x34, 0xBD, 0x74, 0xB9, 0x4D, 0xBE, 0xF2, 0x8A, 0x66, 0x3E, 0x7A, 0x39, 0x71, 0x3E, 0x33, 0xFE, 0x27, 0xBE, 0x8F, 0xA2, 0x8E, 0x3E, 0x7F, 0xBD, 0x86, 0x3E, 0x52, 0xBC, 0x5C, 0x3E, 0x9A, 0x58, 0x53, 0xBE, 0x99, 0xA9, 0x85, 0x3E, 0xC3, 0xDF, 0x84, 0xBE, 0x60, 0xAD, 0x5E, 0xBE, 0x53, 0x46, 0x85, 0x3E, 0xF8, 0x96, 0x3E, 0xBD, 0x90, 0xC0, 0x45, 0x3E, 0x41, 0x9F, 0x0B, 0xBE, 0x10, 0xD8, 0xA7, 0xBD, 0x32, 0xE0, 0xB4, 0xBD, 0x26, 0x97, 0x0D, 0x3E, 0xC6, 0x11, 0x70, 0x3E, 0xFA, 0xD7, 0x65, 0x3E, 0x17, 0xCD, 0x8D, 0x3E, 0xD6, 0x6A, 0x5B, 0x3E, 0xBA, 0x63, 0x85, 0xBE, 0xCE, 0xCF, 0x60, 0x3E, 0x7E, 0x79, 0x3A, 0xBE, 0x16, 0xE9, 0x04, 0x3E, 0x17, 0x61, 0x72, 0xBE, 0x20, 0x19, 0x81, 0xBE, 0xF6, 0xBB, 0xB7, 0xBD, 0xA8, 0x90, 0x00, 0x3D, 0x7C, 0xB7, 0x4B, 0xBE, 0xEA, 0x1A, 0xB9, 0xBD, 0x20, 0x25, 0xEE, 0xBD, 0x63, 0xCC, 0x6F, 0xBE, 0x5C, 0xDD, 0x87, 0x3D, 0xAA, 0xC4, 0x69, 0x3E, 0x94, 0x2C, 0x8C, 0x3D, 0xC1, 0x38, 0x06, 0xBE, 0x60, 0x37, 0x17, 0xBC, 0x07, 0x49, 0x7E, 0xBE, 0x5A, 0x81, 0xAA, 0xBD, 0x40, 0xA2, 0xAA, 0xBC, 0x98, 0x2D, 0x76, 0xBE, 0xB8, 0x73, 0x3E, 0x3D, 0x84, 0x6C, 0x88, 0xBE, 0x5C, 0x36, 0xB9, 0xBD, 0x02, 0x1F, 0x8D, 0xBD, 0x74, 0xDE, 0x41, 0xBE, 0x38, 0x00, 0x9B, 0x3D, 0xE8, 0xB5, 0x11, 0xBD, 0x38, 0xB1, 0x46, 0x3D, 0xBA, 0x79, 0x84, 0xBE, 0x00, 0x87, 0x37, 0xBC, 0x41, 0xF1, 0x8E, 0x3E, 0x20, 0x44, 0x99, 0xBD, 0x1B, 0x5E, 0x83, 0x3E, 0x78, 0x88, 0x60, 0x3D, 0x13, 0x86, 0x85, 0xBE, 0xE3, 0x82, 0x1E, 0xBE, 0x56, 0x0D, 0x1A, 0xBE, 0xDE, 0x5D, 0x8F, 0xBE, 0x3C, 0xC8, 0xC4, 0x3D, 0xF0, 0xB3, 0x0C, 0x3E, 0x1B, 0x99, 0x8A, 0x3E, 0x46, 0x9A, 0xA4, 0xBD, 0x50, 0xA0, 0x42, 0xBD, 0xA6, 0x58, 0xCF, 0xBD, 0x24, 0x4A, 0x67, 0xBE, 0xF0, 0x99, 0xC5, 0x3D, 0x1B, 0x3E, 0x12, 0xBE, 0xC2, 0x3C, 0x5B, 0x3E, 0x1D, 0x2D, 0x8E, 0xBE, 0x94, 0x69, 0xB3, 0x3D, 0x88, 0x14, 0x0C, 0x3D, 0x1A, 0xE0, 0x3F, 0x3E, 0x9F, 0x00, 0x84, 0x3E, 0xD6, 0x66, 0xE2, 0xBD, 0xCA, 0xB5, 0x8A, 0xBE, 0xCA, 0x6D, 0x6A, 0xBE, 0xF0, 0x7C, 0x26, 0x3E, 0x6A, 0x82, 0x3B, 0xBE, 0xD1, 0x67, 0x86, 0xBE, 0x8A, 0xC2, 0x88, 0xBE, 0x80, 0x14, 0xD7, 0x3D, 0x5C, 0xE3, 0x9A, 0x3D, 0x7D, 0x13, 0x91, 0xBE, 0x1E, 0x28, 0x2C, 0x3E, 0xDA, 0x4B, 0x52, 0x3E, 0xC0, 0xFB, 0x8B, 0x3C, 0x74, 0xEF, 0x22, 0x3E, 0xEE, 0xE9, 0x4A, 0x3E, 0x29, 0xCE, 0x84, 0x3E, 0x92, 0x86, 0x91, 0xBD, 0xDA, 0x32, 0xCF, 0xBD, 0xC0, 0x2D, 0x58, 0x3C, 0x7E, 0x27, 0x25, 0x3E, 0x4C, 0x49, 0xD3, 0xBD, 0x32, 0x66, 0x67, 0x3E, 0x4C, 0x34, 0x21, 0xBD, 0x32, 0xC5, 0x81, 0xBE, 0xB2, 0xAE, 0x90, 0xBE, 0x80, 0x7A, 0xC2, 0xBC, 0xF0, 0x7D, 0xA4, 0x3D, 0x06, 0xE0, 0x35, 0xBE, 0x5F, 0xBB, 0x2D, 0xBE, 0x9A, 0x80, 0x7C, 0x3E, 0x80, 0x35, 0xB3, 0xBD, 0xE9, 0xBD, 0x61, 0xBE, 0x38, 0x80, 0xC1, 0xBD, 0xCA, 0x8F, 0x6B, 0x3E, 0x90, 0x4C, 0xE9, 0x3D, 0xBC, 0xDC, 0x39, 0x3E, 0x18, 0xB9, 0xFA, 0x3D, 0xA2, 0xEB, 0x8A, 0xBE, 0xC4, 0xAB, 0x15, 0x3E, 0xA8, 0x71, 0x44, 0x3D, 0x05, 0x82, 0x8F, 0x3E, 0x9F, 0x93, 0x89, 0x3E, 0x66, 0x04, 0x16, 0xBE, 0x62, 0xEF, 0xE7, 0xBD, 0xF0, 0x0D, 0x73, 0x3D, 0xA0, 0xF0, 0x09, 0xBC, 0x00, 0x6A, 0xBC, 0xBA, 0x64, 0xEC, 0xF3, 0xBD, 0xA0, 0x09, 0x4D, 0x3E, 0x84, 0x99, 0x26, 0x3E, 0x10, 0xC1, 0x13, 0x3D, 0xC0, 0xE4, 0x7B, 0xBE, 0x0C, 0x68, 0x4A, 0xBD, 0x40, 0x69, 0xA7, 0xBB, 0xB8, 0x34, 0x74, 0x3D, 0x9C, 0x26, 0x9A, 0x3D, 0x18, 0x66, 0xA7, 0x3D, 0x00, 0x58, 0xBF, 0xBB, 0x7E, 0x62, 0xF1, 0xBD, 0xB0, 0x22, 0x29, 0x3E, 0xE0, 0x1F, 0x4F, 0xBD, 0xAA, 0x92, 0x70, 0x3E, 0xC0, 0xC9, 0xB0, 0x3B, 0xDD, 0x4C, 0x80, 0xBE, 0x44, 0x89, 0xA0, 0x3D, 0x56, 0x85, 0xF1, 0xBD, 0x9E, 0xD7, 0x4D, 0x3E, 0xBE, 0xB0, 0x13, 0xBE, 0x16, 0xA9, 0x7C, 0x3E, 0xB6, 0x6F, 0x6A, 0x3E, 0x60, 0x21, 0xF5, 0xBD, 0x7E, 0x53, 0x5E, 0x3E, 0x3C, 0xF0, 0x12, 0x3E, 0x56, 0xC7, 0x3B, 0x3E, 0x7B, 0x8E, 0x86, 0xBE, 0x81, 0x98, 0x89, 0x3E, 0x26, 0x2A, 0x78, 0x3E, 0x10, 0xBE, 0x88, 0xBD, 0x27, 0x14, 0x83, 0x3E, 0x34, 0x09, 0x4E, 0x3E, 0xF0, 0x10, 0xCA, 0xBC, 0x20, 0xC8, 0x88, 0x3C, 0x02, 0x80, 0x7A, 0x3E, 0x58, 0xD0, 0x80, 0x3D, 0x86, 0x67, 0x41, 0x3E, 0x49, 0x0B, 0x0A, 0xBE, 0xB4, 0x24, 0x2D, 0x3E, 0x67, 0xDE, 0x0C, 0xBE, 0xCE, 0xC6, 0xF3, 0xBD, 0x70, 0xE9, 0x0C, 0xBD, 0x90, 0xCD, 0x90, 0xBE, 0x40, 0xC4, 0x86, 0xBC, 0x30, 0x1C, 0xC8, 0x3C, 0xC4, 0xF4, 0x36, 0xBE, 0xB3, 0x73, 0x84, 0x3E, 0x0C, 0x5A, 0x72, 0xBD, 0x90, 0xC3, 0xB8, 0x3D, 0xC0, 0x01, 0xAD, 0x3D, 0xB4, 0x24, 0xD1, 0x3D, 0x32, 0x06, 0x9C, 0xBD, 0x63, 0x57, 0x1D, 0xBE, 0x20, 0x28, 0x84, 0x3C, 0x40, 0xDF, 0x53, 0x3E, 0x4A, 0xDC, 0x87, 0xBD, 0xB4, 0xC8, 0x40, 0xBE, 0x12, 0x7F, 0x1F, 0x3E, 0x6A, 0x02, 0x59, 0xBE, 0xC0, 0xC5, 0x18, 0x3E, 0x4E, 0xF9, 0x62, 0xBE, 0xC0, 0x46, 0x73, 0xBC, 0x40, 0xB3, 0x55, 0xBE, 0x0A, 0xED, 0x8C, 0xBE, 0xE8, 0xF7, 0x00, 0x3E, 0x86, 0x33, 0x85, 0xBE, 0xA0, 0x99, 0xA3, 0xBC, 0x88, 0xFF, 0x90, 0xBD, 0x60, 0x52, 0xB6, 0x3C, 0x62, 0x17, 0xE6, 0xBD, 0x90, 0xA6, 0x26, 0xBD, 0x7E, 0x23, 0xAD, 0xBD, 0xC8, 0xAE, 0x23, 0xBD, 0x94, 0x68, 0x87, 0xBD, 0x28, 0x65, 0xDA, 0xBD, 0x98, 0x55, 0x0C, 0xBD, 0x10, 0xDC, 0xF0, 0xBC, 0x52, 0x06, 0x26, 0x3E, 0x57, 0x71, 0x84, 0x3E, 0xD8, 0x3B, 0xBF, 0x3D, 0xEA, 0xA1, 0x73, 0x3E, 0x62, 0x7A, 0x12, 0x3E, 0x60, 0x2C, 0x91, 0xBD, 0x80, 0x7D, 0x28, 0x3B, 0xBC, 0x63, 0x19, 0xBD, 0xEE, 0x02, 0xD0, 0xBD, 0x44, 0x40, 0x10, 0xBE, 0xA0, 0x48, 0x60, 0xBE, 0x00, 0x0E, 0x9C, 0xBB, 0x02, 0x68, 0x45, 0x3E, 0x61, 0x70, 0x80, 0x3E, 0xDA, 0x3A, 0x6A, 0x3E, 0x84, 0x0A, 0x8C, 0x3D, 0x7C, 0x03, 0xDD, 0x3D, 0xD4, 0x31, 0x86, 0xBE, 0x36, 0xD7, 0x3E, 0xBE, 0x58, 0xC3, 0x1E, 0x3D, 0xDF, 0x2C, 0x87, 0xBE, 0xD4, 0x31, 0xE3, 0x3D, 0xC0, 0x39, 0x53, 0x3D, 0xBF, 0x35, 0x03, 0xBE, 0x66, 0xC3, 0x86, 0xBE, 0x52, 0x48, 0xB4, 0xBD, 0x30, 0x6C, 0x57, 0x3E, 0x89, 0x93, 0x86, 0x3E, 0xE6, 0xB3, 0x79, 0x3E, 0xFA, 0x24, 0x8F, 0xBE, 0xE8, 0x14, 0x3B, 0x3E, 0xDE, 0x86, 0x7A, 0x3E, 0x34, 0x86, 0xA6, 0x3D, 0x18, 0x9D, 0x51, 0xBE, 0x80, 0x2C, 0x85, 0xBC, 0xEC, 0x9F, 0x4B, 0x3E, 0x25, 0xA3, 0x8A, 0xBE, 0x68, 0x62, 0xEF, 0x3D, 0x7E, 0x78, 0xE8, 0xBD, 0xF0, 0x87, 0x17, 0xBE, 0x86, 0x1D, 0x89, 0xBD, 0xA3, 0xEC, 0x50, 0xBE, 0xB4, 0x65, 0x90, 0xBE, 0xCC, 0x10, 0x66, 0xBE, 0x70, 0xEF, 0xAA, 0x3C, 0x00, 0x95, 0xD0, 0xBB, 0x92, 0xC3, 0x61, 0x3E, 0x36, 0x47, 0x7A, 0x3E, 0xF8, 0xFC, 0xD4, 0x3D, 0xB0, 0xD4, 0x4E, 0xBE, 0xCA, 0xDB, 0x70, 0xBE, 0x4E, 0xF3, 0x5F, 0xBE, 0x08, 0x2C, 0x04, 0x3D, 0xBC, 0xD9, 0x4C, 0x3E, 0x48, 0xAC, 0x29, 0x3D, 0x00, 0x2F, 0xA2, 0xBB, 0xFC, 0xBA, 0xF0, 0x3D, 0xF8, 0x8A, 0x1E, 0x3E, 0x9A, 0x39, 0x7F, 0x3E, 0x26, 0x46, 0xE0, 0xBD, 0xC0, 0x92, 0xCA, 0xBC, 0x14, 0x13, 0x99, 0x3D, 0xA0, 0xEF, 0x9E, 0xBD, 0x11, 0xF5, 0x6B, 0xBE, 0x02, 0x43, 0x2F, 0x3E, 0x24, 0xD7, 0x24, 0xBD, 0x20, 0x19, 0x64, 0xBC, 0x4E, 0xC1, 0x67, 0x3E, 0xF7, 0xCE, 0x8F, 0x3E, 0xC8, 0x06, 0x8C, 0xBD, 0x60, 0xA3, 0x88, 0xBC, 0x0C, 0x38, 0x3A, 0xBD, 0x14, 0x49, 0x48, 0x3E, 0xA0, 0x31, 0x4C, 0xBE, 0xBE, 0x12, 0x48, 0x3E, 0xC6, 0x4B, 0xDA, 0xBD, 0x18, 0x95, 0xE3, 0x3D, 0x8A, 0xBB, 0x70, 0x3E, 0x36, 0x5D, 0x8E, 0xBE, 0xFA, 0xF8, 0x29, 0xBE, 0xDC, 0x25, 0x39, 0xBE, 0x9C, 0x77, 0x92, 0x3D, 0xB4, 0x89, 0x4A, 0x3E, 0x3C, 0xFB, 0x4A, 0x3E, 0x4E, 0x81, 0x7D, 0x3E, 0xC2, 0xEC, 0x53, 0xBE, 0x44, 0x4A, 0x2C, 0x3E, 0x05, 0x28, 0x8D, 0xBE, 0x24, 0x0B, 0x0D, 0x3E, 0xC2, 0x4D, 0x23, 0xBE, 0x34, 0x2D, 0x99, 0xBD, 0x06, 0x5C, 0x19, 0x3E, 0x34, 0x2D, 0xB1, 0x3D, 0x50, 0xEE, 0x2D, 0x3D, 0x57, 0x69, 0x8B, 0x3E, 0x48, 0xE5, 0x0F, 0x3D, 0x36, 0x12, 0x46, 0xBE, 0x0C, 0x0E, 0x6A, 0xBD, 0xF6, 0x1D, 0x91, 0xBD, 0x77, 0xAD, 0x1C, 0xBE, 0x8F, 0x27, 0x8D, 0x3E, 0xD8, 0x46, 0x41, 0x3D, 0x38, 0x88, 0xF4, 0x3D, 0x66, 0x42, 0x12, 0x3E, 0xA4, 0x9C, 0x8B, 0x3D, 0x47, 0xA6, 0x0D, 0xBE, 0x24, 0xC0, 0x20, 0x3E, 0xF0, 0xCC, 0xCF, 0xBD, 0xFA, 0x40, 0x80, 0xBD, 0x3E, 0xE6, 0xF2, 0xBD, 0x10, 0xD5, 0x66, 0xBD, 0xE4, 0x9D, 0xEF, 0x3D, 0x3E, 0x61, 0x91, 0xBE, 0xF8, 0x23, 0x83, 0x3D, 0x14, 0x66, 0x6C, 0xBD, 0x7E, 0x8F, 0x00, 0x3E, 0x3F, 0x79, 0x12, 0xBE, 0x63, 0xF3, 0x80, 0x3E, 0x0C, 0xD2, 0x4D, 0xBE, 0xF6, 0xC5, 0x83, 0xBE, 0x96, 0x98, 0x06, 0xBE, 0xD7, 0x31, 0x90, 0x3E, 0x70, 0x6D, 0xF8, 0x3D, 0x80, 0x42, 0x46, 0xBC, 0x74, 0x81, 0xF4, 0xBD, 0x96, 0xA7, 0x6D, 0x3E, 0x30, 0x4A, 0x12, 0xBD, 0xCB, 0x73, 0x8C, 0xBE, 0xB0, 0xF5, 0x36, 0xBE, 0xA6, 0x85, 0x8D, 0xBE, 0xFE, 0xD2, 0x79, 0x3E, 0xAE, 0x5E, 0x23, 0x3E, 0x20, 0xE0, 0x5C, 0xBE, 0xF0, 0xE8, 0xA3, 0x3C, 0x34, 0x5E, 0xAC, 0x3D, 0x24, 0x80, 0x65, 0xBD, 0xD8, 0xAD, 0x1F, 0xBD, 0x50, 0xB1, 0x5B, 0x3E, 0x12, 0x9D, 0x50, 0xBE, 0x36, 0xF3, 0x6D, 0x3E, 0xFD, 0x35, 0x85, 0xBE, 0x44, 0x73, 0x7C, 0xBD, 0x83, 0x08, 0x6B, 0xBE, 0xD4, 0xE7, 0x93, 0x3D, 0x34, 0x63, 0xE2, 0x3D, 0x20, 0x68, 0xB8, 0x3D, 0x54, 0xE5, 0x4B, 0x3E, 0xB9, 0xAD, 0x2A, 0xBE, 0x2E, 0xA3, 0x58, 0x3E, 0x6A, 0x76, 0x1B, 0x3E, 0x0C, 0xCF, 0x58, 0x3E, 0xAD, 0x45, 0x0D, 0xBE, 0x12, 0x17, 0x84, 0xBD, 0x14, 0xB6, 0x4A, 0xBD, 0x2C, 0xF4, 0xD4, 0xBD, 0x3C, 0xF7, 0x01, 0x3E, 0x96, 0x7F, 0x13, 0x3E, 0xA1, 0x0E, 0x09, 0xBE, 0x90, 0xF1, 0x82, 0x3D, 0x68, 0x0A, 0x53, 0x3D, 0xAA, 0x65, 0x6F, 0x3E, 0x9A, 0x03, 0x23, 0x3E, 0xC0, 0xB5, 0xEC, 0xBB, 0x6D, 0xEB, 0x3A, 0xBE, 0x8D, 0x2D, 0x91, 0xBE, 0x64, 0xFE, 0x29, 0xBE, 0xCA, 0x4F, 0x04, 0xBE, 0x0A, 0xB1, 0x0F, 0xBE, 0x08, 0x6A, 0x90, 0x3D, 0xA0, 0xBB, 0x61, 0xBD, 0x68, 0xEA, 0x1A, 0x3D, 0xD4, 0x48, 0x8A, 0xBD, 0xC5, 0xFE, 0x27, 0xBE, 0xF0, 0x60, 0xE7, 0x3D, 0xB2, 0xC8, 0x70, 0x3E, 0xDF, 0x10, 0x8D, 0x3E, 0xCF, 0x84, 0x1E, 0xBE, 0xF8, 0xC3, 0x02, 0x3E, 0x02, 0x05, 0x68, 0xBE, 0x3A, 0x95, 0x19, 0x3E, 0xB4, 0x16, 0x25, 0xBD, 0x32, 0xAA, 0x14, 0x3E, 0x80, 0x83, 0x6F, 0xBC, 0x00, 0x11, 0x10, 0x3C, 0xFF, 0x24, 0x41, 0xBE, 0xA0, 0xF0, 0x8B, 0x3C, 0x00, 0x00, 0x06, 0x00, 0x08, 0x00, 0x04, 0x00, 0x06, 0x00, 0x00, 0x00, 0x04, 0x00, 0x00, 0x00, 0x00, 0x01, 0x00, 0x00, 0x00, 0xC8, 0x62, 0xBE, 0xD8, 0xAD, 0xEB, 0xBD, 0x59, 0x24, 0x9A, 0xBE, 0x6E, 0x69, 0x20, 0xBE, 0x1C, 0x17, 0xD3, 0xBD, 0x99, 0x95, 0x03, 0xBE, 0x90, 0x36, 0x16, 0xBD, 0x4C, 0xFC, 0x48, 0xBE, 0xA5, 0xAB, 0x08, 0xBE, 0x90, 0x19, 0xA6, 0x3D, 0xA8, 0xD1, 0x58, 0x3D, 0x80, 0x20, 0xA8, 0x3B, 0xD0, 0x59, 0x0A, 0xBD, 0x5A, 0x80, 0x39, 0xBE, 0x89, 0xFC, 0x20, 0xBE, 0x78, 0xAF, 0x4C, 0x3E, 0xE0, 0x06, 0x72, 0xBE, 0x80, 0xAD, 0x47, 0x3D, 0x8D, 0xB2, 0x8B, 0xBE, 0x60, 0x1D, 0xE7, 0xBC, 0x36, 0xFC, 0xE8, 0xBD, 0x28, 0xFA, 0x61, 0xBE, 0x90, 0x50, 0x8D, 0x3D, 0x48, 0x79, 0x66, 0x3E, 0xC2, 0x08, 0x9E, 0xBD, 0x60, 0xED, 0x9A, 0xBC, 0xD8, 0x1A, 0x43, 0x3E, 0x08, 0x3E, 0xEA, 0x3D, 0x40, 0x1E, 0xEB, 0x3D, 0x2E, 0x9A, 0x4A, 0xBE, 0x00, 0x13, 0x75, 0x3E, 0x3B, 0x07, 0x92, 0xBE, 0xE0, 0x43, 0x4E, 0x3C, 0x2E, 0x53, 0x73, 0xBE, 0xFC, 0xEA, 0xE1, 0x3D, 0x28, 0x21, 0x34, 0x3D, 0xC6, 0x2D, 0xEE, 0xBD, 0x8E, 0xC9, 0x3B, 0x3E, 0x70, 0x86, 0x12, 0x3D, 0xB0, 0xD5, 0x80, 0x3C, 0xFC, 0x8A, 0x53, 0x3E, 0x58, 0x24, 0xEE, 0x3D, 0x30, 0x89, 0x60, 0x3D, 0x88, 0xCE, 0x17, 0x3D, 0x90, 0x55, 0x41, 0x3D, 0xA6, 0x2F, 0x96, 0x3E, 0xB8, 0x5F, 0x76, 0xBE, 0x10, 0xD5, 0xAB, 0x3D, 0x3E, 0xE3, 0x36, 0xBE, 0xC0, 0xFA, 0x67, 0x3E, 0x50, 0x00, 0x2B, 0x3E, 0xEC, 0xD5, 0xC0, 0x3D, 0x71, 0x67, 0x21, 0xBE, 0xFF, 0x38, 0x60, 0xBE, 0xF0, 0xB8, 0x9F, 0xBC, 0x88, 0x1F, 0x2F, 0x3E, 0xA0, 0xF9, 0x37, 0x3D, 0x1E, 0xAD, 0x89, 0x3E, 0x8C, 0x60, 0x36, 0x3E, 0x90, 0x2B, 0xA8, 0x3C, 0xCC, 0x19, 0x52, 0x3E, 0xE4, 0x45, 0xD7, 0x3D, 0x8B, 0x08, 0x8C, 0xBE, 0xB0, 0x7B, 0x1B, 0xBD, 0x50, 0xFD, 0xFF, 0xFF, 0x54, 0xFD, 0xFF, 0xFF, 0x0F, 0x00, 0x00, 0x00, 0x4D, 0x4C, 0x49, 0x52, 0x20, 0x43, 0x6F, 0x6E, 0x76, 0x65, 0x72, 0x74, 0x65, 0x64, 0x2E, 0x00, 0x01, 0x00, 0x00, 0x00, 0x14, 0x00, 0x00, 0x00, 0x00, 0x00, 0x0E, 0x00, 0x18, 0x00, 0x14, 0x00, 0x10, 0x00, 0x0C, 0x00, 0x08, 0x00, 0x04, 0x00, 0x0E, 0x00, 0x00, 0x00, 0x14, 0x00, 0x00, 0x00, 0x1C, 0x00, 0x00, 0x00, 0xA0, 0x00, 0x00, 0x00, 0xA4, 0x00, 0x00, 0x00, 0xA8, 0x00, 0x00, 0x00, 0x04, 0x00, 0x00, 0x00, 0x6D, 0x61, 0x69, 0x6E, 0x00, 0x00, 0x00, 0x00, 0x02, 0x00, 0x00, 0x00, 0x48, 0x00, 0x00, 0x00, 0x04, 0x00, 0x00, 0x00, 0xCE, 0xFF, 0xFF, 0xFF, 0x10, 0x00, 0x00, 0x00, 0x00, 0x00, 0x00, 0x08, 0x0C, 0x00, 0x00, 0x00, 0x10, 0x00, 0x00, 0x00, 0xC8, 0xFD, 0xFF, 0xFF, 0x01, 0x00, 0x00, 0x00, 0x04, 0x00, 0x00, 0x00, 0x03, 0x00, 0x00, 0x00, 0x03, 0x00, 0x00, 0x00, 0x01, 0x00, 0x00, 0x00, 0xFF, 0xFF, 0xFF, 0xFF, 0x00, 0x00, 0x0E, 0x00, 0x16, 0x00, 0x00, 0x00, 0x10, 0x00, 0x0C, 0x00, 0x0B, 0x00, 0x04, 0x00, 0x0E, 0x00, 0x00, 0x00, 0x18, 0x00, 0x00, 0x00, 0x00, 0x00, 0x00, 0x08, 0x18, 0x00, 0x00, 0x00, 0x1C, 0x00, 0x00, 0x00, 0x00, 0x00, 0x06, 0x00, 0x08, 0x00, 0x07, 0x00, 0x06, 0x00, 0x00, 0x00, 0x00, 0x00, 0x00, 0x01, 0x01, 0x00, 0x00, 0x00, 0x03, 0x00, 0x00, 0x00, 0x03, 0x00, 0x00, 0x00, 0x00, 0x00, 0x00, 0x00, 0x02, 0x00, 0x00, 0x00, 0xFF, 0xFF, 0xFF, 0xFF, 0x01, 0x00, 0x00, 0x00, 0x04, 0x00, 0x00, 0x00, 0x01, 0x00, 0x00, 0x00, 0x00, 0x00, 0x00, 0x00, 0x05, 0x00, 0x00, 0x00, 0x94, 0x01, 0x00, 0x00, 0x3C, 0x01, 0x00, 0x00, 0xD8, 0x00, 0x00, 0x00, 0x60, 0x00, 0x00, 0x00, 0x04, 0x00, 0x00, 0x00, 0x96, 0xFE, 0xFF, 0xFF, 0x00, 0x00, 0x00, 0x01, 0x14, 0x00, 0x00, 0x00, 0x1C, 0x00, 0x00, 0x00, 0x1C, 0x00, 0x00, 0x00, 0x05, 0x00, 0x00, 0x00, 0x34, 0x00, 0x00, 0x00, 0x02, 0x00, 0x00, 0x00, 0xFF, 0xFF, 0xFF, 0xFF, 0x01, 0x00, 0x00, 0x00, 0x80, 0xFE, 0xFF, 0xFF, 0x1B, 0x00, 0x00, 0x00, 0x53, 0x74, 0x61, 0x74, 0x65, 0x66, 0x75, 0x6C, 0x50, 0x61, 0x72, 0x74, 0x69, 0x74, 0x69, 0x6F, 0x6E, 0x65, 0x64, 0x43, 0x61, 0x6C, 0x6C, 0x5F, 0x31, 0x3A, 0x30, 0x00, 0x02, 0x00, 0x00, 0x00, 0x01, 0x00, 0x00, 0x00, 0x01, 0x00, 0x00, 0x00, 0xEE, 0xFE, 0xFF, 0xFF, 0x00, 0x00, 0x00, 0x01, 0x14, 0x00, 0x00, 0x00, 0x1C, 0x00, 0x00, 0x00, 0x1C, 0x00, 0x00, 0x00, 0x04, 0x00, 0x00, 0x00, 0x50, 0x00, 0x00, 0x00, 0x02, 0x00, 0x00, 0x00, 0xFF, 0xFF, 0xFF, 0xFF, 0x40, 0x00, 0x00, 0x00, 0xD8, 0xFE, 0xFF, 0xFF, 0x35, 0x00, 0x00, 0x00, 0x73, 0x65, 0x71, 0x75, 0x65, 0x6E, 0x74, 0x69, 0x61, 0x6C, 0x5F, 0x31, 0x2F, 0x64, 0x65, 0x6E, 0x73, 0x65, 0x5F, 0x31, 0x2F, 0x4D, 0x61, 0x74, 0x4D, 0x75, 0x6C, 0x3B, 0x73, 0x65, 0x71, 0x75, 0x65, 0x6E, 0x74, 0x69, 0x61, 0x6C, 0x5F, 0x31, 0x2F, 0x64, 0x65, 0x6E, 0x73, 0x65, 0x5F, 0x31, 0x2F, 0x52, 0x65, 0x6C, 0x75, 0x00, 0x00, 0x00, 0x02, 0x00, 0x00, 0x00, 0x01, 0x00, 0x00, 0x00, 0x40, 0x00, 0x00, 0x00, 0xB6, 0xFF, 0xFF, 0xFF, 0x00, 0x00, 0x00, 0x01, 0x10, 0x00, 0x00, 0x00, 0x10, 0x00, 0x00, 0x00, 0x03, 0x00, 0x00, 0x00, 0x28, 0x00, 0x00, 0x00, 0x3C, 0xFF, 0xFF, 0xFF, 0x1B, 0x00, 0x00, 0x00, 0x73, 0x65, 0x71, 0x75, 0x65, 0x6E, 0x74, 0x69, 0x61, 0x6C, 0x5F, 0x31, 0x2F, 0x64, 0x65, 0x6E, 0x73, 0x65, 0x5F, 0x31, 0x2F, 0x4D, 0x61, 0x74, 0x4D, 0x75, 0x6C, 0x00, 0x02, 0x00, 0x00, 0x00, 0x40, 0x00, 0x00, 0x00, 0x0A, 0x00, 0x00, 0x00, 0x00, 0x00, 0x16, 0x00, 0x18, 0x00, 0x14, 0x00, 0x00, 0x00, 0x10, 0x00, 0x0C, 0x00, 0x08, 0x00, 0x00, 0x00, 0x00, 0x00, 0x00, 0x00, 0x07, 0x00, 0x16, 0x00, 0x00, 0x00, 0x00, 0x00, 0x00, 0x01, 0x10, 0x00, 0x00, 0x00, 0x10, 0x00, 0x00, 0x00, 0x02, 0x00, 0x00, 0x00, 0x1C, 0x00, 0x00, 0x00, 0x9C, 0xFF, 0xFF, 0xFF, 0x0E, 0x00, 0x00, 0x00, 0x61, 0x72, 0x69, 0x74, 0x68, 0x2E, 0x63, 0x6F, 0x6E, 0x73, 0x74, 0x61, 0x6E, 0x74, 0x00, 0x00, 0x02, 0x00, 0x00, 0x00, 0x01, 0x00, 0x00, 0x00, 0x40, 0x00, 0x00, 0x00, 0x00, 0x00, 0x16, 0x00, 0x1C, 0x00, 0x18, 0x00, 0x00, 0x00, 0x14, 0x00, 0x10, 0x00, 0x0C, 0x00, 0x00, 0x00, 0x00, 0x00, 0x08, 0x00, 0x07, 0x00, 0x16, 0x00, 0x00, 0x00, 0x00, 0x00, 0x00, 0x01, 0x14, 0x00, 0x00, 0x00, 0x20, 0x00, 0x00, 0x00, 0x20, 0x00, 0x00, 0x00, 0x01, 0x00, 0x00, 0x00, 0x3C, 0x00, 0x00, 0x00, 0x02, 0x00, 0x00, 0x00, 0xFF, 0xFF, 0xFF, 0xFF, 0x0A, 0x00, 0x00, 0x00, 0x04, 0x00, 0x04, 0x00, 0x04, 0x00, 0x00, 0x00, 0x1D, 0x00, 0x00, 0x00, 0x73, 0x65, 0x72, 0x76, 0x69, 0x6E, 0x67, 0x5F, 0x64, 0x65, 0x66, 0x61, 0x75, 0x6C, 0x74, 0x5F, 0x69, 0x6E, 0x70, 0x75, 0x74, 0x5F, 0x6C, 0x61, 0x79, 0x65, 0x72, 0x3A, 0x30, 0x00, 0x00, 0x00, 0x02, 0x00, 0x00, 0x00, 0x01, 0x00, 0x00, 0x00, 0x0A, 0x00, 0x00, 0x00, 0x01, 0x00, 0x00, 0x00, 0x10, 0x00, 0x00, 0x00, 0x0C, 0x00, 0x0C, 0x00, 0x0B, 0x00, 0x00, 0x00, 0x00, 0x00, 0x04, 0x00, 0x0C, 0x00, 0x00, 0x00, 0x09, 0x00, 0x00, 0x00, 0x00, 0x00, 0x00, 0x09
};

// Model length
constexpr unsigned int ecg_model_len = 4080;

#endif // ECG_MODEL_H
